▁C	-0
<unk>	0
▁T	-1
NG	-2
NH	-3
▁M	-4
▁L	-5
▁Đ	-6
▁TH	-7
▁LÀ	-8
▁V	-9
▁N	-10
▁NH	-11
▁CÁ	-12
▁H	-13
▁CH	-14
▁B	-15
▁S	-16
▁K	-17
▁CÁI	-18
▁KH	-19
ÌNH	-20
▁NG	-21
▁R	-22
▁G	-23
▁MÌNH	-24
▁TR	-25
▁A	-26
▁P	-27
▁NÓ	-28
▁THÌ	-29
▁CÓ	-30
▁MÀ	-31
ÔNG	-32
EM	-33
ỜI	-34
▁D	-35
ỘT	-36
▁MỘT	-37
▁EM	-38
▁PH	-39
▁KHÔNG	-40
▁NHƯ	-41
▁GI	-42
▁VÀ	-43
ẤT	-44
ẤY	-45
ƯỜI	-46
ÊN	-47
ỚI	-48
▁NGƯỜI	-49
IỆ	-50
▁THE	-51
ỮNG	-52
▁NHỮNG	-53
ON	-54
▁ĐÓ	-55
ỦA	-56
▁CỦA	-57
QU	-58
AY	-59
▁QU	-60
▁CŨ	-61
▁NGH	-62
▁CŨNG	-63
▁NÀ	-64
ƯỢ	-65
IẾ	-66
CH	-67
ẠI	-68
IỀ	-69
▁X	-70
ONG	-71
ẢI	-72
AN	-73
IN	-74
▁RẤT	-75
ƯỢC	-76
▁ĐƯỢC	-77
▁SẼ	-78
▁O	-79
UY	-80
ỒI	-81
▁LÀM	-82
IỀU	-83
▁VỚI	-84
▁W	-85
▁CHO	-86
▁PHẢI	-87
▁ĐI	-88
▁ANH	-89
▁CẢ	-90
▁CHỊ	-91
▁TO	-92
ẠN	-93
ÔI	-94
▁RA	-95
TI	-96
▁HỌ	-97
▁TRONG	-98
▁NHƯNG	-99
▁NÀY	-100
ÚNG	-101
▁ĐỂ	-102
▁ĐẤY	-103
▁AN	-104
▁RỒI	-105
▁F	-106
ER	-107
▁NHIỀU	-108
▁VỀ	-109
EN	-110
AI	-111
▁NGHĨ	-112
ẦN	-113
▁NÓI	-114
ỌI	-115
▁Ở	-116
▁BẠN	-117
▁THỂ	-118
ÂU	-119
ÂY	-120
▁VIỆ	-121
▁KHI	-122
IỂ	-123
ANG	-124
▁THẾ	-125
▁TA	-126
▁KHÁ	-127
▁Y	-128
UỐ	-129
▁I	-130
▁GÌ	-131
ÚC	-132
IẾT	-133
AU	-134
▁THẤY	-135
▁HAY	-136
ƠN	-137
▁VÌ	-138
AO	-139
▁LẠI	-140
ẦU	-141
ÂN	-142
▁CÁC	-143
OR	-144
AM	-145
▁CHUY	-146
IỂU	-147
ẾN	-148
▁HO	-149
ƯƠ	-150
IÊN	-151
ƯỚ	-152
▁ĐẾN	-153
AR	-154
▁CON	-155
INH	-156
▁ĐÃ	-157
▁NÀO	-158
▁SỰ	-159
ÀI	-160
ỨC	-161
ĂM	-162
▁OF	-163
▁ĐẦU	-164
ỆN	-165
ÀNH	-166
ẢN	-167
▁MỌI	-168
▁TỪ	-169
ING	-170
ÔN	-171
▁ĐÚNG	-172
▁CẢM	-173
▁VIỆC	-174
▁CHUYỆN	-175
▁GIỜ	-176
▁SO	-177
▁TẠI	-178
▁AND	-179
ỰC	-180
ES	-181
ẾT	-182
ẬT	-183
▁LÚC	-184
ƯỚC	-185
▁LU	-186
▁BIẾT	-187
ƯƠNG	-188
▁HAI	-189
▁IN	-190
ƯỜ	-191
▁HƠN	-192
ƯỜNG	-193
ỐNG	-194
ÒN	-195
UỐN	-196
AT	-197
AL	-198
▁CO	-199
ÊU	-200
TION	-201
ÀNG	-202
▁LUÔN	-203
RO	-204
ẾU	-205
▁Á	-206
▁KIỂU	-207
ẬY	-208
ƯA	-209
▁MỚI	-210
▁CÒN	-211
▁THỨ	-212
▁NÊN	-213
▁THÔI	-214
▁CHỈ	-215
▁ĐANG	-216
ỮA	-217
▁CHÚNG	-218
▁TÔI	-219
▁CÂU	-220
▁VẬY	-221
▁DỤ	-222
▁CÔNG	-223
▁NĂM	-224
ST	-225
ƠI	-226
▁KHÁC	-227
ẬN	-228
ÍNH	-229
▁MUỐN	-230
▁VÀO	-231
ÍCH	-232
ÙNG	-233
OU	-234
ỔI	-235
▁NẾU	-236
ẪN	-237
▁TIẾ	-238
ỐI	-239
UNG	-240
ET	-241
ẰNG	-242
ÁC	-243
IỆN	-244
▁DO	-245
▁THỜI	-246
IC	-247
ANH	-248
▁ĐÂY	-249
▁BÂY	-250
ẶC	-251
▁HỌC	-252
ÀN	-253
▁QUÁ	-254
ẮC	-255
▁NHẤT	-256
ÀY	-257
IA	-258
▁SÁ	-259
▁SAO	-260
RE	-261
▁SAU	-262
IT	-263
ỎI	-264
▁BA	-265
▁NỮA	-266
ĂN	-267
▁CÁCH	-268
▁ĐỘ	-269
▁QUAN	-270
ỞI	-271
ẮT	-272
▁NGÀY	-273
▁BE	-274
▁VẪN	-275
▁THÀNH	-276
LE	-277
ÂM	-278
IM	-279
▁WE	-280
▁NHAU	-281
▁NAM	-282
▁BỊ	-283
▁LO	-284
ENT	-285
▁THỰC	-286
▁TỰ	-287
▁THẬT	-288
ÁT	-289
▁BẢN	-290
▁ĐỀ	-291
ẬP	-292
▁GỌI	-293
▁ẤY	-294
▁THÍCH	-295
▁ĐIỀU	-296
▁YOU	-297
▁LÊN	-298
ỘC	-299
▁TỨC	-300
▁VIỆT	-301
▁CỨ	-302
VE	-303
▁TRƯỚC	-304
ỌN	-305
ÌN	-306
ĂNG	-307
▁NO	-308
▁BỞI	-309
▁BU	-310
▁XONG	-311
▁U	-312
▁HỎI	-313
LL	-314
ỒNG	-315
▁THEO	-316
▁NGHIỆ	-317
▁TƯ	-318
▁DI	-319
▁TỐ	-320
ỘI	-321
▁HA	-322
▁Ý	-323
▁NHÌN	-324
▁TRÊN	-325
▁ST	-326
▁ĐÂU	-327
▁CHỨ	-328
IỀN	-329
▁SU	-330
▁TẤT	-331
UỘC	-332
▁TỚI	-333
▁QUA	-334
▁TRÌNH	-335
▁YÊU	-336
▁VI	-337
▁NHẬN	-338
▁CHƯA	-339
▁NHÀ	-340
▁CHÍNH	-341
TING	-342
▁LỚ	-343
▁CẦN	-344
ẠO	-345
▁VÍ	-346
▁SỐNG	-347
AC	-348
▁AI	-349
▁COM	-350
▁KHO	-351
▁MẸ	-352
ẤN	-353
▁HẾT	-354
ẶT	-355
▁ĐỊ	-356
▁BẮT	-357
▁ĐIỂ	-358
▁RẰNG	-359
▁GIAN	-360
▁NGO	-361
ẢNG	-362
▁HOẶC	-363
IỆU	-364
▁E	-365
ỌNG	-366
ATION	-367
▁HIỂU	-368
▁THÂN	-369
▁HÀNG	-370
▁GIỐNG	-371
▁PRO	-372
ỖI	-373
▁ĐIỂM	-374
▁TRƯỜNG	-375
▁SỐ	-376
IẾN	-377
▁BẢ	-378
▁CÙNG	-379
▁LI	-380
AS	-381
▁CUỘC	-382
▁NGHE	-383
IÊU	-384
▁BAO	-385
▁TU	-386
▁TIẾP	-387
▁PHẦN	-388
▁CÔ	-389
▁TIÊN	-390
▁ĐỊNH	-391
▁HÌNH	-392
▁KHÓ	-393
▁BÊN	-394
▁HIỆN	-395
▁ĐỐI	-396
▁GIÁ	-397
▁QUY	-398
ỞNG	-399
▁DẠ	-400
ỤC	-401
▁IS	-402
▁OK	-403
▁NHIÊN	-404
▁TIN	-405
▁CHẮC	-406
▁TÂM	-407
▁TÌNH	-408
▁TỐT	-409
ÁI	-410
ÚT	-411
▁LỚN	-412
ẠNH	-413
▁FI	-414
KE	-415
▁BÀI	-416
▁MINH	-417
ỀN	-418
PP	-419
RI	-420
ẮM	-421
ÔM	-422
▁ĐỘNG	-423
ẠC	-424
▁THƯỜNG	-425
▁LẦN	-426
▁NHÂN	-427
▁NAY	-428
▁THU	-429
▁TIỀN	-430
ẮN	-431
ÁN	-432
ỪA	-433
EL	-434
UT	-435
▁ĐỒNG	-436
▁NGOÀI	-437
▁TẬP	-438
▁LÝ	-439
UR	-440
ẨM	-441
▁NGHĨA	-442
ÌM	-443
ẢNH	-444
▁SẢN	-445
▁TÌM	-446
▁NĂNG	-447
▁SH	-448
ÒNG	-449
▁ÔNG	-450
▁IT	-451
UỐNG	-452
ỄN	-453
▁ĐỔI	-454
ƯỢNG	-455
▁HÔM	-456
▁HƠI	-457
▁MƯỜI	-458
ẤU	-459
▁CHIA	-460
▁ON	-461
▁TẠO	-462
▁MY	-463
▁VẤN	-464
▁XEM	-465
▁À	-466
▁TÍNH	-467
▁AT	-468
ƯƠI	-469
▁GIẢ	-470
▁HỒI	-471
ÊM	-472
ẶP	-473
▁NGHỆ	-474
▁FOR	-475
▁GIA	-476
▁VỪA	-477
▁ĐO	-478
▁ĐÁ	-479
▁PHẨM	-480
▁TIẾNG	-481
▁TRẺ	-482
▁HÀNH	-483
IỆT	-484
▁KHÁCH	-485
ỊCH	-486
▁BỐ	-487
ED	-488
▁THO	-489
▁ĂN	-490
▁CƠ	-491
▁MƯƠI	-492
▁HỘI	-493
ỌC	-494
▁BẢO	-495
▁CHỌN	-496
ẲNG	-497
▁TRỌNG	-498
ỨNG	-499
▁VU	-500
▁MỖI	-501
▁THAY	-502
▁PHÁT	-503
▁MU	-504
EO	-505
▁LẮM	-506
ỒN	-507
▁GIỚI	-508
▁THƯƠNG	-509
▁NƯỚC	-510
ỪNG	-511
▁VIẾT	-512
IS	-513
ÀO	-514
▁WAR	-515
▁ẢNH	-516
ỢP	-517
ẦY	-518
▁GIÁC	-519
TH	-520
ẤP	-521
▁HỢP	-522
▁SẺ	-523
▁CHÍ	-524
ẮNG	-525
▁DIỄN	-526
▁DỰ	-527
▁TRỞ	-528
▁VUI	-529
▁AS	-530
▁GẶP	-531
▁ĐỜI	-532
▁WH	-533
▁LỜI	-534
▁NGHIỆP	-535
EST	-536
▁ĐỀU	-537
▁NHẠC	-538
ART	-539
▁NGHIỆM	-540
OO	-541
▁SINH	-542
▁THỨC	-543
▁MẶT	-544
▁QUAY	-545
▁TOÀN	-546
ẠT	-547
▁HỆ	-548
▁BẰNG	-549
▁MẤY	-550
▁TÁC	-551
▁PO	-552
ƯỚNG	-553
▁NHỚ	-554
▁KIA	-555
▁DÙNG	-556
▁TRẢI	-557
ID	-558
▁VÔ	-559
EC	-560
▁THÔNG	-561
▁KINH	-562
▁TRĂM	-563
▁THEN	-564
▁SÁCH	-565
▁RI	-566
▁SĨ	-567
▁BÌNH	-568
▁NGỒI	-569
▁TỤ	-570
▁TUỔI	-571
▁SÁNG	-572
ÓC	-573
▁GẦN	-574
▁QUYẾT	-575
▁THỊ	-576
▁GIẢI	-577
▁MANG	-578
▁KẾT	-579
▁XU	-580
▁DỄ	-581
▁THÁ	-582
UYÊN	-583
▁PHIM	-584
▁KHOẢNG	-585
US	-586
▁TIM	-587
▁CHUNG	-588
▁KỂ	-589
ESS	-590
LO	-591
▁VIET	-592
▁VỊ	-593
▁CHƯƠNG	-594
▁ƠN	-595
GE	-596
IỂN	-597
VER	-598
▁TỤI	-599
▁WOR	-600
▁ĐỌC	-601
▁THÊM	-602
▁HẠN	-603
▁NGAY	-604
▁CỐ	-605
▁SHO	-606
▁CAN	-607
▁TỪNG	-608
▁TIÊU	-609
ẸP	-610
▁DỤNG	-611
▁AC	-612
ƯỞNG	-613
▁SP	-614
▁BIỆT	-615
ẦM	-616
CE	-617
ÃY	-618
▁BỘ	-619
▁BỌN	-620
▁Ờ	-621
▁ĐỦ	-622
ÓA	-623
▁NHỎ	-624
▁UỐNG	-625
▁SỬ	-626
▁CA	-627
▁MUA	-628
▁ĐƯA	-629
ÚP	-630
▁XƯA	-631
ỘNG	-632
▁RÕ	-633
▁CHẲNG	-634
▁LỰC	-635
▁Ạ	-636
▁DOANH	-637
ME	-638
▁VĂN	-639
UỐI	-640
▁HÁT	-641
▁LIÊN	-642
ỂN	-643
▁MO	-644
▁CHÚT	-645
▁KỲ	-646
▁HÓA	-647
▁ĐẸP	-648
▁RE	-649
▁OR	-650
▁TRUNG	-651
MENT	-652
▁ĐƯỜNG	-653
▁TRIỂN	-654
▁UN	-655
▁ĐÔI	-656
▁GIÚP	-657
IP	-658
FT	-659
ÍT	-660
▁THI	-661
▁HƯỚNG	-662
▁THẦY	-663
▁TY	-664
▁MAR	-665
▁XÚC	-666
▁CÀNG	-667
▁MẤT	-668
UN	-669
▁SE	-670
▁CAO	-671
ỐC	-672
▁SỢ	-673
▁CHƠI	-674
▁AM	-675
▁LƯỢNG	-676
UYỀN	-677
▁BO	-678
▁SUY	-679
▁KHÁN	-680
▁TƯỞNG	-681
▁NHA	-682
▁ĐƠN	-683
ỨA	-684
▁CHỦ	-685
▁ĐOẠN	-686
▁MỞ	-687
GH	-688
▁TÀI	-689
▁TRỊ	-690
▁LINH	-691
▁BẤT	-692
CO	-693
ÁM	-694
▁ME	-695
▁CHU	-696
▁TRẢ	-697
ẢY	-698
IỆM	-699
AND	-700
▁MA	-701
▁HOÀN	-702
▁ĐẶC	-703
▁NỘI	-704
▁CUỐI	-705
▁MOR	-706
▁OUT	-707
▁LÂU	-708
▁XIN	-709
▁COMP	-710
▁VIÊN	-711
▁TUY	-712
▁BƯỚC	-713
▁THỬ	-714
▁ĐÌNH	-715
▁ĐẠI	-716
▁CHẤT	-717
▁CỰC	-718
▁APP	-719
▁ĐẶT	-720
▁TRUYỀN	-721
▁TRANG	-722
RA	-723
▁CUỐN	-724
IẾU	-725
▁HAVE	-726
▁NỮ	-727
▁COI	-728
▁DÙ	-729
AST	-730
▁AR	-731
▁THÁNG	-732
CI	-733
ÊNG	-734
ẨN	-735
▁PHÁ	-736
▁SỨC	-737
▁ÍT	-738
▁XUẤT	-739
ẠNG	-740
▁PR	-741
▁LIKE	-742
▁TÊN	-743
▁MONG	-744
▁MỜI	-745
▁BỎ	-746
UB	-747
▁YO	-748
▁GH	-749
NAM	-750
▁ĐỒ	-751
▁NOT	-752
▁NGHỀ	-753
UL	-754
▁NON	-755
▁CẦU	-756
▁LE	-757
▁TẾ	-758
ẬM	-759
ACE	-760
▁VẬT	-761
▁BI	-762
▁BỐN	-763
▁PL	-764
▁TRÒ	-765
▁DỤC	-766
▁CHUYỂN	-767
▁NGÀNH	-768
▁KIẾN	-769
IẾM	-770
▁GO	-771
ÙY	-772
▁TƯƠNG	-773
▁RIÊNG	-774
▁LIỆU	-775
▁TRỜI	-776
▁CHỖ	-777
▁TAY	-778
▁DỊCH	-779
▁VIETNAM	-780
▁THIẾT	-781
▁BÀ	-782
▁HAPP	-783
▁Ừ	-784
▁ƠI	-785
▁MẠNH	-786
CK	-787
▁THAT	-788
▁MÁ	-789
▁XÃ	-790
▁THUẬT	-791
EW	-792
▁ĐỨA	-793
▁CHẠ	-794
ÉT	-795
▁TỔ	-796
▁HIỆU	-797
▁NÈ	-798
RY	-799
▁FIR	-800
▁FRO	-801
▁WEB	-802
▁YẾU	-803
▁RÀNG	-804
▁LẤY	-805
▁DÀNH	-806
▁NHIÊU	-807
▁ÂM	-808
▁CHI	-809
▁THA	-810
▁MAN	-811
▁J	-812
▁SÁU	-813
▁DƯ	-814
▁IM	-815
ỢI	-816
▁MẶC	-817
REN	-818
▁BÁN	-819
▁PHỤ	-820
▁TƯỢNG	-821
TIC	-822
▁BAN	-823
▁CHẮN	-824
UM	-825
▁BÁ	-826
▁WAT	-827
▁KẾ	-828
▁GIAI	-829
▁QUEN	-830
ẢO	-831
FOR	-832
▁TRANH	-833
▁DÀI	-834
▁HẠNH	-835
▁BÉ	-836
ERS	-837
▁TOP	-838
KING	-839
▁CỘNG	-840
▁TRÍ	-841
▁ONE	-842
▁PHÚC	-843
▁BẢY	-844
▁GIỮA	-845
▁PHƯƠNG	-846
▁SÂN	-847
▁ĐÁNH	-848
RESS	-849
▁THAM	-850
▁GẮNG	-851
▁TỤC	-852
▁PHÍ	-853
▁CHÚ	-854
▁MAY	-855
▁GIẢN	-856
▁BEA	-857
▁SOFT	-858
▁CHỮ	-859
ÃI	-860
▁MỸ	-861
PER	-862
▁TE	-863
▁HÃY	-864
ONE	-865
▁THING	-866
▁KỸ	-867
▁ĐIỆN	-868
▁HƯỞNG	-869
▁SÂU	-870
▁PHÒNG	-871
▁MI	-872
▁ĐỪNG	-873
▁WHAT	-874
▁TÍ	-875
▁NƠI	-876
▁KIẾM	-877
DY	-878
▁CONT	-879
SH	-880
▁PHÊ	-881
ORT	-882
▁DUNG	-883
ION	-884
▁CHÀO	-885
▁DUY	-886
▁BUỔI	-887
▁COMMENT	-888
UP	-889
TER	-890
▁CÀ	-891
▁DẪN	-892
▁NHANH	-893
PLE	-894
▁NHÁ	-895
▁THIN	-896
▁THẦN	-897
▁SANG	-898
▁TINH	-899
▁ĐỨNG	-900
ẶNG	-901
▁ÁN	-902
▁	-903
N	-904
H	-905
I	-906
T	-907
C	-908
G	-909
M	-910
A	-911
À	-912
L	-913
O	-914
U	-915
Đ	-916
R	-917
E	-918
Á	-919
Y	-920
Ì	-921
V	-922
S	-923
Ó	-924
Ư	-925
K	-926
B	-927
P	-928
Ô	-929
Ấ	-930
D	-931
Ờ	-932
Ả	-933
Ế	-934
Ộ	-935
Ạ	-936
Ể	-937
Ớ	-938
Ề	-939
Ê	-940
Ệ	-941
Â	-942
Ữ	-943
Ọ	-944
Ố	-945
Ú	-946
F	-947
Ủ	-948
Ị	-949
Ơ	-950
Ợ	-951
Ầ	-952
Ứ	-953
Ậ	-954
Ồ	-955
Ũ	-956
Q	-957
Ở	-958
X	-959
Ự	-960
W	-961
Í	-962
Ẽ	-963
Ă	-964
Ắ	-965
Ĩ	-966
Ã	-967
Ừ	-968
Ụ	-969
Ò	-970
Ặ	-971
Ù	-972
Ỏ	-973
Ổ	-974
Ỉ	-975
Ý	-976
Ằ	-977
Ẫ	-978
Ẹ	-979
Ẻ	-980
Ỗ	-981
Ử	-982
Ễ	-983
Ẩ	-984
É	-985
Ẳ	-986
È	-987
Õ	-988
Ỹ	-989
Ỳ	-990
Ỡ	-991
J	-992
Z	-993
Ỷ	-994
Ẵ	-995
-	-996
Ỵ	-997
<	-998
